unsigned char _content_vital_signs_model_quantized_tflite[] = {
  0x1c, 0x00, 0x00, 0x00, 0x54, 0x46, 0x4c, 0x33, 0x14, 0x00, 0x20, 0x00,
  0x1c, 0x00, 0x18, 0x00, 0x14, 0x00, 0x10, 0x00, 0x0c, 0x00, 0x00, 0x00,
  0x08, 0x00, 0x04, 0x00, 0x14, 0x00, 0x00, 0x00, 0x1c, 0x00, 0x00, 0x00,
  0x8c, 0x00, 0x00, 0x00, 0xe4, 0x00, 0x00, 0x00, 0x50, 0x05, 0x00, 0x00,
  0x60, 0x05, 0x00, 0x00, 0xf4, 0x0a, 0x00, 0x00, 0x03, 0x00, 0x00, 0x00,
  0x01, 0x00, 0x00, 0x00, 0x04, 0x00, 0x00, 0x00, 0x62, 0xfa, 0xff, 0xff,
  0x0c, 0x00, 0x00, 0x00, 0x1c, 0x00, 0x00, 0x00, 0x3c, 0x00, 0x00, 0x00,
  0x0f, 0x00, 0x00, 0x00, 0x73, 0x65, 0x72, 0x76, 0x69, 0x6e, 0x67, 0x5f,
  0x64, 0x65, 0x66, 0x61, 0x75, 0x6c, 0x74, 0x00, 0x01, 0x00, 0x00, 0x00,
  0x04, 0x00, 0x00, 0x00, 0x90, 0xff, 0xff, 0xff, 0x0a, 0x00, 0x00, 0x00,
  0x04, 0x00, 0x00, 0x00, 0x08, 0x00, 0x00, 0x00, 0x6f, 0x75, 0x74, 0x70,
  0x75, 0x74, 0x5f, 0x30, 0x00, 0x00, 0x00, 0x00, 0x01, 0x00, 0x00, 0x00,
  0x04, 0x00, 0x00, 0x00, 0x52, 0xfb, 0xff, 0xff, 0x04, 0x00, 0x00, 0x00,
  0x0c, 0x00, 0x00, 0x00, 0x6b, 0x65, 0x72, 0x61, 0x73, 0x5f, 0x74, 0x65,
  0x6e, 0x73, 0x6f, 0x72, 0x00, 0x00, 0x00, 0x00, 0x02, 0x00, 0x00, 0x00,
  0x34, 0x00, 0x00, 0x00, 0x04, 0x00, 0x00, 0x00, 0xdc, 0xff, 0xff, 0xff,
  0x0d, 0x00, 0x00, 0x00, 0x04, 0x00, 0x00, 0x00, 0x13, 0x00, 0x00, 0x00,
  0x43, 0x4f, 0x4e, 0x56, 0x45, 0x52, 0x53, 0x49, 0x4f, 0x4e, 0x5f, 0x4d,
  0x45, 0x54, 0x41, 0x44, 0x41, 0x54, 0x41, 0x00, 0x08, 0x00, 0x0c, 0x00,
  0x08, 0x00, 0x04, 0x00, 0x08, 0x00, 0x00, 0x00, 0x0c, 0x00, 0x00, 0x00,
  0x04, 0x00, 0x00, 0x00, 0x13, 0x00, 0x00, 0x00, 0x6d, 0x69, 0x6e, 0x5f,
  0x72, 0x75, 0x6e, 0x74, 0x69, 0x6d, 0x65, 0x5f, 0x76, 0x65, 0x72, 0x73,
  0x69, 0x6f, 0x6e, 0x00, 0x0e, 0x00, 0x00, 0x00, 0x68, 0x04, 0x00, 0x00,
  0x60, 0x04, 0x00, 0x00, 0x30, 0x04, 0x00, 0x00, 0x18, 0x02, 0x00, 0x00,
  0x04, 0x02, 0x00, 0x00, 0xd4, 0x01, 0x00, 0x00, 0x84, 0x01, 0x00, 0x00,
  0xb4, 0x00, 0x00, 0x00, 0xac, 0x00, 0x00, 0x00, 0xa4, 0x00, 0x00, 0x00,
  0x9c, 0x00, 0x00, 0x00, 0x94, 0x00, 0x00, 0x00, 0x74, 0x00, 0x00, 0x00,
  0x04, 0x00, 0x00, 0x00, 0x06, 0xfc, 0xff, 0xff, 0x04, 0x00, 0x00, 0x00,
  0x60, 0x00, 0x00, 0x00, 0x0c, 0x00, 0x00, 0x00, 0x08, 0x00, 0x0e, 0x00,
  0x08, 0x00, 0x04, 0x00, 0x08, 0x00, 0x00, 0x00, 0x10, 0x00, 0x00, 0x00,
  0x28, 0x00, 0x00, 0x00, 0x00, 0x00, 0x06, 0x00, 0x08, 0x00, 0x04, 0x00,
  0x06, 0x00, 0x00, 0x00, 0x04, 0x00, 0x00, 0x00, 0x01, 0x00, 0x00, 0x00,
  0xea, 0x03, 0x00, 0x00, 0x0c, 0x00, 0x18, 0x00, 0x14, 0x00, 0x10, 0x00,
  0x0c, 0x00, 0x04, 0x00, 0x0c, 0x00, 0x00, 0x00, 0x6f, 0x34, 0xb4, 0xe6,
  0xbc, 0x5c, 0xfe, 0x7b, 0x02, 0x00, 0x00, 0x00, 0x02, 0x00, 0x00, 0x00,
  0x04, 0x00, 0x00, 0x00, 0x06, 0x00, 0x00, 0x00, 0x32, 0x2e, 0x31, 0x39,
  0x2e, 0x30, 0x00, 0x00, 0x72, 0xfc, 0xff, 0xff, 0x04, 0x00, 0x00, 0x00,
  0x10, 0x00, 0x00, 0x00, 0x31, 0x2e, 0x31, 0x34, 0x2e, 0x30, 0x00, 0x00,
  0x00, 0x00, 0x00, 0x00, 0x00, 0x00, 0x00, 0x00, 0xe0, 0xf6, 0xff, 0xff,
  0xe4, 0xf6, 0xff, 0xff, 0xe8, 0xf6, 0xff, 0xff, 0xec, 0xf6, 0xff, 0xff,
  0x9e, 0xfc, 0xff, 0xff, 0x04, 0x00, 0x00, 0x00, 0xc0, 0x00, 0x00, 0x00,
  0x4f, 0x93, 0xec, 0xbe, 0x98, 0x8c, 0xcb, 0xbb, 0x29, 0xf4, 0x17, 0x40,
  0x75, 0xfb, 0x8e, 0x3f, 0x6e, 0x0e, 0xad, 0xbb, 0xf7, 0xc2, 0xe2, 0x3f,
  0xb8, 0x79, 0xce, 0x3c, 0x3d, 0xfc, 0x5a, 0x3e, 0x00, 0xde, 0xd3, 0x3e,
  0x28, 0xe3, 0xf1, 0xbb, 0x76, 0x5a, 0x39, 0x3a, 0xf5, 0xe2, 0xb3, 0xbf,
  0x40, 0xfb, 0xbc, 0xbe, 0x7d, 0xa5, 0x83, 0xbd, 0xde, 0x31, 0x7d, 0x3f,
  0x76, 0x5e, 0xea, 0xbd, 0xf2, 0xa1, 0xd1, 0xbb, 0xf5, 0x78, 0xfe, 0x3f,
  0xce, 0x04, 0x36, 0x3e, 0x17, 0x03, 0x75, 0x3d, 0x58, 0x5e, 0x76, 0x3e,
  0x42, 0x18, 0x36, 0x3f, 0x2e, 0x8d, 0x4b, 0xbc, 0xd5, 0xc7, 0xa4, 0x3f,
  0x0a, 0x5c, 0x41, 0xbb, 0xb4, 0xa4, 0x6f, 0x3b, 0x16, 0x77, 0xbe, 0xbf,
  0x7d, 0xc8, 0x5f, 0x3f, 0xb1, 0x19, 0x62, 0xbd, 0x01, 0xba, 0xda, 0xbf,
  0x14, 0xc5, 0xa3, 0x3f, 0xcb, 0x57, 0x01, 0x3b, 0x2d, 0xdf, 0x60, 0x3c,
  0x6c, 0xf0, 0xc8, 0x3c, 0xc5, 0xfd, 0xa1, 0x3b, 0xa8, 0x35, 0x2b, 0x3c,
  0xd6, 0x1b, 0x9b, 0x3e, 0x2c, 0xc8, 0xf8, 0x3d, 0x0f, 0x81, 0x8b, 0x3f,
  0x2a, 0x25, 0x68, 0x3d, 0xbf, 0x92, 0x45, 0x3b, 0xd0, 0x53, 0x99, 0x3c,
  0xd6, 0x3b, 0x04, 0xbf, 0x39, 0xba, 0x81, 0x3a, 0x35, 0x32, 0x03, 0xc0,
  0x8d, 0xf7, 0x10, 0x3e, 0xf6, 0xd5, 0x07, 0xbe, 0x57, 0xd8, 0x8f, 0x3e,
  0x6a, 0xfd, 0xff, 0xff, 0x04, 0x00, 0x00, 0x00, 0x40, 0x00, 0x00, 0x00,
  0x15, 0xc2, 0xaf, 0xbf, 0x4c, 0xb4, 0x07, 0x3f, 0x69, 0xc9, 0x85, 0x3f,
  0x38, 0xb5, 0xb0, 0xbf, 0x3b, 0xcd, 0xc6, 0x3f, 0xee, 0x45, 0xb2, 0xbf,
  0xce, 0x26, 0xc9, 0x3e, 0x6c, 0xeb, 0x7c, 0x3e, 0x8d, 0xac, 0xba, 0xbf,
  0x68, 0x71, 0x76, 0xbe, 0x73, 0x6f, 0x96, 0xbf, 0x44, 0x7b, 0x39, 0xbd,
  0x59, 0xbc, 0x75, 0xbf, 0xf7, 0xfd, 0x03, 0xbe, 0xdb, 0x91, 0xc8, 0xbf,
  0x69, 0x55, 0x9a, 0x3f, 0xb6, 0xfd, 0xff, 0xff, 0x04, 0x00, 0x00, 0x00,
  0x20, 0x00, 0x00, 0x00, 0x47, 0x8c, 0xe4, 0x3f, 0x6a, 0xb9, 0xe2, 0x3f,
  0x5e, 0x00, 0xce, 0xbf, 0x2c, 0x53, 0xe2, 0xbf, 0x08, 0x73, 0xe2, 0x3f,
  0x88, 0xcf, 0xa9, 0xbf, 0xff, 0x14, 0xed, 0x3f, 0xbc, 0x66, 0x8e, 0xbf,
  0xe2, 0xfd, 0xff, 0xff, 0x04, 0x00, 0x00, 0x00, 0x04, 0x00, 0x00, 0x00,
  0xf9, 0x51, 0xd9, 0xbf, 0xf2, 0xfd, 0xff, 0xff, 0x04, 0x00, 0x00, 0x00,
  0x00, 0x02, 0x00, 0x00, 0x93, 0x1f, 0x2c, 0xc0, 0xb3, 0x5f, 0x17, 0xbf,
  0xb5, 0xc0, 0x18, 0x3f, 0x29, 0x60, 0xca, 0xbe, 0x78, 0x7e, 0x14, 0x3f,
  0xee, 0xbd, 0x67, 0xc0, 0xc9, 0xe4, 0x61, 0xbe, 0xf8, 0x0a, 0xa0, 0xbe,
  0x4e, 0xb0, 0x07, 0xc0, 0x25, 0x9b, 0x48, 0xbf, 0x71, 0x75, 0x25, 0xc1,
  0x52, 0x18, 0x56, 0xbe, 0xe9, 0x9a, 0x35, 0x3e, 0xae, 0xa3, 0xb6, 0xbe,
  0x25, 0x36, 0xc3, 0xbf, 0xce, 0x67, 0xaf, 0x3e, 0xca, 0x7f, 0x3c, 0xc0,
  0xc2, 0xa9, 0x7b, 0xbf, 0xc9, 0xbb, 0xb7, 0x3e, 0xae, 0x94, 0x8d, 0xbf,
  0x06, 0x28, 0x69, 0x3f, 0xed, 0x31, 0x3d, 0xc0, 0x99, 0xc0, 0x3c, 0xbe,
  0x0d, 0xe6, 0xfc, 0xbd, 0x83, 0x7c, 0xc2, 0xbf, 0xfb, 0x80, 0x71, 0xbf,
  0x6f, 0x3c, 0x1f, 0xc1, 0x91, 0x36, 0xbf, 0x3b, 0x84, 0x67, 0x30, 0xbe,
  0x9f, 0x43, 0xa9, 0x3e, 0x12, 0x04, 0x06, 0xc0, 0x9b, 0x81, 0x1c, 0x3f,
  0x05, 0x79, 0x2d, 0x40, 0xaf, 0x10, 0x9d, 0x3f, 0x08, 0x5f, 0x48, 0xbe,
  0x2a, 0x28, 0xa0, 0x3f, 0x5f, 0x73, 0x16, 0xbf, 0x04, 0xaa, 0x39, 0x40,
  0x3e, 0x5b, 0x23, 0x3e, 0x23, 0xcd, 0xb7, 0x3d, 0xe4, 0x03, 0xe6, 0x3f,
  0x12, 0x5a, 0x86, 0x3f, 0x3c, 0x6c, 0x2c, 0x41, 0xbb, 0x3f, 0x96, 0x3e,
  0x56, 0x9c, 0x93, 0xbe, 0x8b, 0x7a, 0x88, 0x3d, 0xf4, 0x8b, 0x09, 0x40,
  0x5e, 0xec, 0x04, 0xbf, 0xe3, 0x0c, 0x22, 0x40, 0x0d, 0xc0, 0x9e, 0x3f,
  0x52, 0x50, 0x0c, 0xbe, 0x44, 0x26, 0x88, 0x3f, 0xdb, 0xec, 0xc4, 0xbe,
  0xc9, 0xb2, 0x4a, 0x40, 0xc7, 0xd8, 0x42, 0xbe, 0x0a, 0xde, 0x2f, 0x3f,
  0xa6, 0x28, 0x1e, 0x40, 0xd5, 0x0a, 0x72, 0x3f, 0x37, 0x92, 0x23, 0x41,
  0xa6, 0x80, 0x26, 0xbc, 0x09, 0x10, 0xf0, 0xbd, 0xad, 0x94, 0x13, 0x3e,
  0xe0, 0x66, 0x12, 0x40, 0x1f, 0x1c, 0x10, 0xbe, 0x09, 0xdd, 0x07, 0xc0,
  0x3e, 0x73, 0x13, 0xbf, 0xe5, 0x80, 0x08, 0xbd, 0xce, 0x3a, 0x61, 0xbf,
  0xf7, 0x14, 0x1e, 0x3f, 0x55, 0xc9, 0x47, 0xc0, 0xbf, 0xb8, 0x2f, 0x3e,
  0xc6, 0x53, 0x03, 0xbf, 0xb4, 0xe8, 0x0f, 0xc0, 0x1e, 0x19, 0x3a, 0xbf,
  0x59, 0xf0, 0x1f, 0xc1, 0xbe, 0x70, 0x5d, 0xbe, 0x8d, 0xfb, 0xbe, 0xbe,
  0x82, 0x5b, 0xb5, 0x3e, 0xab, 0xfe, 0x02, 0xc0, 0xc6, 0xd5, 0x20, 0x3f,
  0xcf, 0xf6, 0xff, 0x3f, 0x3c, 0x89, 0xb2, 0x3f, 0x4e, 0xe6, 0x24, 0xbe,
  0xe5, 0x34, 0x0d, 0x3e, 0x44, 0x8a, 0x9c, 0x3d, 0x0c, 0x97, 0x3b, 0x40,
  0x56, 0x46, 0x84, 0x3d, 0x84, 0xe5, 0x24, 0x3f, 0xdb, 0xd8, 0xf3, 0x3f,
  0xb0, 0xb9, 0x92, 0x3f, 0x32, 0x8d, 0x2b, 0x41, 0x0a, 0x1d, 0x1b, 0xbf,
  0xd7, 0x1d, 0x27, 0x3f, 0x0a, 0x5a, 0xc1, 0xbe, 0x06, 0x32, 0x1c, 0x40,
  0x77, 0x30, 0x9a, 0xbc, 0x7c, 0x5a, 0x2c, 0xc0, 0x78, 0xa3, 0x85, 0xbf,
  0x9e, 0x75, 0xb1, 0x3e, 0x62, 0x22, 0x37, 0xbf, 0xc7, 0x45, 0x5a, 0x3f,
  0xb9, 0x3e, 0x56, 0xc0, 0xd5, 0x56, 0xda, 0x3e, 0x0a, 0xde, 0xcf, 0xbe,
  0x7c, 0x82, 0x18, 0xc0, 0x45, 0xc3, 0x79, 0xbf, 0x86, 0x11, 0x23, 0xc1,
  0x5c, 0xae, 0xf4, 0x3e, 0xd9, 0x58, 0xe7, 0xbd, 0x60, 0x6c, 0x72, 0x3b,
  0xd5, 0x0f, 0xd9, 0xbf, 0xb4, 0xe2, 0xfb, 0x3e, 0xba, 0x69, 0x81, 0xc0,
  0xc5, 0x3a, 0xca, 0x3f, 0x86, 0xeb, 0x6b, 0xbd, 0x92, 0x96, 0xfc, 0x3f,
  0x2d, 0x82, 0xe5, 0xbf, 0xdb, 0x1a, 0x8d, 0xc0, 0xfe, 0x95, 0x9d, 0x3c,
  0x8f, 0x80, 0x95, 0x3e, 0xad, 0x7b, 0x02, 0x40, 0xa6, 0xd2, 0x5e, 0x3f,
  0x54, 0xc4, 0x4a, 0x41, 0xdf, 0x03, 0x52, 0x3d, 0x27, 0x7e, 0xfe, 0xc0,
  0xf9, 0xe6, 0xc6, 0x3e, 0xa7, 0xf3, 0x0f, 0x40, 0x2e, 0xfd, 0x0f, 0x3e,
  0x00, 0x00, 0x06, 0x00, 0x08, 0x00, 0x04, 0x00, 0x06, 0x00, 0x00, 0x00,
  0x04, 0x00, 0x00, 0x00, 0x20, 0x00, 0x00, 0x00, 0x53, 0x2a, 0x44, 0xc0,
  0xa9, 0x09, 0x36, 0xc0, 0x93, 0x7d, 0x73, 0x40, 0xdd, 0x17, 0x61, 0x40,
  0xd5, 0x3f, 0x2b, 0xc0, 0x40, 0xa8, 0xf1, 0x3f, 0x90, 0xbd, 0x2d, 0xc0,
  0x3e, 0x84, 0x8c, 0x40, 0x84, 0xfa, 0xff, 0xff, 0x88, 0xfa, 0xff, 0xff,
  0x0f, 0x00, 0x00, 0x00, 0x4d, 0x4c, 0x49, 0x52, 0x20, 0x43, 0x6f, 0x6e,
  0x76, 0x65, 0x72, 0x74, 0x65, 0x64, 0x2e, 0x00, 0x01, 0x00, 0x00, 0x00,
  0x14, 0x00, 0x00, 0x00, 0x00, 0x00, 0x0e, 0x00, 0x18, 0x00, 0x14, 0x00,
  0x10, 0x00, 0x0c, 0x00, 0x08, 0x00, 0x04, 0x00, 0x0e, 0x00, 0x00, 0x00,
  0x14, 0x00, 0x00, 0x00, 0x1c, 0x00, 0x00, 0x00, 0x08, 0x01, 0x00, 0x00,
  0x0c, 0x01, 0x00, 0x00, 0x10, 0x01, 0x00, 0x00, 0x04, 0x00, 0x00, 0x00,
  0x6d, 0x61, 0x69, 0x6e, 0x00, 0x00, 0x00, 0x00, 0x04, 0x00, 0x00, 0x00,
  0xb0, 0x00, 0x00, 0x00, 0x68, 0x00, 0x00, 0x00, 0x34, 0x00, 0x00, 0x00,
  0x10, 0x00, 0x00, 0x00, 0x00, 0x00, 0x0a, 0x00, 0x10, 0x00, 0x0c, 0x00,
  0x08, 0x00, 0x04, 0x00, 0x0a, 0x00, 0x00, 0x00, 0x0c, 0x00, 0x00, 0x00,
  0x10, 0x00, 0x00, 0x00, 0x01, 0x00, 0x00, 0x00, 0x01, 0x00, 0x00, 0x00,
  0x0a, 0x00, 0x00, 0x00, 0x01, 0x00, 0x00, 0x00, 0x09, 0x00, 0x00, 0x00,
  0x9a, 0xff, 0xff, 0xff, 0x10, 0x00, 0x00, 0x00, 0x00, 0x00, 0x00, 0x08,
  0x0c, 0x00, 0x00, 0x00, 0x10, 0x00, 0x00, 0x00, 0x30, 0xfb, 0xff, 0xff,
  0x01, 0x00, 0x00, 0x00, 0x09, 0x00, 0x00, 0x00, 0x03, 0x00, 0x00, 0x00,
  0x08, 0x00, 0x00, 0x00, 0x01, 0x00, 0x00, 0x00, 0x03, 0x00, 0x00, 0x00,
  0xca, 0xff, 0xff, 0xff, 0x10, 0x00, 0x00, 0x00, 0x00, 0x00, 0x00, 0x08,
  0x10, 0x00, 0x00, 0x00, 0x14, 0x00, 0x00, 0x00, 0xba, 0xff, 0xff, 0xff,
  0x00, 0x00, 0x00, 0x01, 0x01, 0x00, 0x00, 0x00, 0x08, 0x00, 0x00, 0x00,
  0x03, 0x00, 0x00, 0x00, 0x07, 0x00, 0x00, 0x00, 0x02, 0x00, 0x00, 0x00,
  0x04, 0x00, 0x00, 0x00, 0x00, 0x00, 0x0e, 0x00, 0x16, 0x00, 0x00, 0x00,
  0x10, 0x00, 0x0c, 0x00, 0x0b, 0x00, 0x04, 0x00, 0x0e, 0x00, 0x00, 0x00,
  0x18, 0x00, 0x00, 0x00, 0x00, 0x00, 0x00, 0x08, 0x18, 0x00, 0x00, 0x00,
  0x1c, 0x00, 0x00, 0x00, 0x00, 0x00, 0x06, 0x00, 0x08, 0x00, 0x07, 0x00,
  0x06, 0x00, 0x00, 0x00, 0x00, 0x00, 0x00, 0x01, 0x01, 0x00, 0x00, 0x00,
  0x07, 0x00, 0x00, 0x00, 0x03, 0x00, 0x00, 0x00, 0x00, 0x00, 0x00, 0x00,
  0x06, 0x00, 0x00, 0x00, 0x05, 0x00, 0x00, 0x00, 0x01, 0x00, 0x00, 0x00,
  0x0a, 0x00, 0x00, 0x00, 0x01, 0x00, 0x00, 0x00, 0x00, 0x00, 0x00, 0x00,
  0x0b, 0x00, 0x00, 0x00, 0xf8, 0x03, 0x00, 0x00, 0xa0, 0x03, 0x00, 0x00,
  0x48, 0x03, 0x00, 0x00, 0x0c, 0x03, 0x00, 0x00, 0xb0, 0x02, 0x00, 0x00,
  0x58, 0x02, 0x00, 0x00, 0x0c, 0x02, 0x00, 0x00, 0x78, 0x01, 0x00, 0x00,
  0xdc, 0x00, 0x00, 0x00, 0x60, 0x00, 0x00, 0x00, 0x04, 0x00, 0x00, 0x00,
  0x4a, 0xfc, 0xff, 0xff, 0x00, 0x00, 0x00, 0x01, 0x14, 0x00, 0x00, 0x00,
  0x1c, 0x00, 0x00, 0x00, 0x1c, 0x00, 0x00, 0x00, 0x0b, 0x00, 0x00, 0x00,
  0x34, 0x00, 0x00, 0x00, 0x02, 0x00, 0x00, 0x00, 0xff, 0xff, 0xff, 0xff,
  0x01, 0x00, 0x00, 0x00, 0x34, 0xfc, 0xff, 0xff, 0x1b, 0x00, 0x00, 0x00,
  0x53, 0x74, 0x61, 0x74, 0x65, 0x66, 0x75, 0x6c, 0x50, 0x61, 0x72, 0x74,
  0x69, 0x74, 0x69, 0x6f, 0x6e, 0x65, 0x64, 0x43, 0x61, 0x6c, 0x6c, 0x5f,
  0x31, 0x3a, 0x30, 0x00, 0x02, 0x00, 0x00, 0x00, 0x01, 0x00, 0x00, 0x00,
  0x01, 0x00, 0x00, 0x00, 0xa2, 0xfc, 0xff, 0xff, 0x00, 0x00, 0x00, 0x01,
  0x14, 0x00, 0x00, 0x00, 0x1c, 0x00, 0x00, 0x00, 0x1c, 0x00, 0x00, 0x00,
  0x0a, 0x00, 0x00, 0x00, 0x54, 0x00, 0x00, 0x00, 0x02, 0x00, 0x00, 0x00,
  0xff, 0xff, 0xff, 0xff, 0x01, 0x00, 0x00, 0x00, 0x8c, 0xfc, 0xff, 0xff,
  0x38, 0x00, 0x00, 0x00, 0x73, 0x65, 0x71, 0x75, 0x65, 0x6e, 0x74, 0x69,
  0x61, 0x6c, 0x5f, 0x31, 0x2f, 0x64, 0x65, 0x6e, 0x73, 0x65, 0x5f, 0x32,
  0x5f, 0x31, 0x2f, 0x4d, 0x61, 0x74, 0x4d, 0x75, 0x6c, 0x3b, 0x73, 0x65,
  0x71, 0x75, 0x65, 0x6e, 0x74, 0x69, 0x61, 0x6c, 0x5f, 0x31, 0x2f, 0x64,
  0x65, 0x6e, 0x73, 0x65, 0x5f, 0x32, 0x5f, 0x31, 0x2f, 0x41, 0x64, 0x64,
  0x00, 0x00, 0x00, 0x00, 0x02, 0x00, 0x00, 0x00, 0x01, 0x00, 0x00, 0x00,
  0x01, 0x00, 0x00, 0x00, 0x1a, 0xfd, 0xff, 0xff, 0x00, 0x00, 0x00, 0x01,
  0x14, 0x00, 0x00, 0x00, 0x1c, 0x00, 0x00, 0x00, 0x1c, 0x00, 0x00, 0x00,
  0x09, 0x00, 0x00, 0x00, 0x74, 0x00, 0x00, 0x00, 0x02, 0x00, 0x00, 0x00,
  0xff, 0xff, 0xff, 0xff, 0x08, 0x00, 0x00, 0x00, 0x04, 0xfd, 0xff, 0xff,
  0x58, 0x00, 0x00, 0x00, 0x73, 0x65, 0x71, 0x75, 0x65, 0x6e, 0x74, 0x69,
  0x61, 0x6c, 0x5f, 0x31, 0x2f, 0x64, 0x65, 0x6e, 0x73, 0x65, 0x5f, 0x31,
  0x5f, 0x32, 0x2f, 0x4d, 0x61, 0x74, 0x4d, 0x75, 0x6c, 0x3b, 0x73, 0x65,
  0x71, 0x75, 0x65, 0x6e, 0x74, 0x69, 0x61, 0x6c, 0x5f, 0x31, 0x2f, 0x64,
  0x65, 0x6e, 0x73, 0x65, 0x5f, 0x31, 0x5f, 0x32, 0x2f, 0x52, 0x65, 0x6c,
  0x75, 0x3b, 0x73, 0x65, 0x71, 0x75, 0x65, 0x6e, 0x74, 0x69, 0x61, 0x6c,
  0x5f, 0x31, 0x2f, 0x64, 0x65, 0x6e, 0x73, 0x65, 0x5f, 0x31, 0x5f, 0x32,
  0x2f, 0x42, 0x69, 0x61, 0x73, 0x41, 0x64, 0x64, 0x00, 0x00, 0x00, 0x00,
  0x02, 0x00, 0x00, 0x00, 0x01, 0x00, 0x00, 0x00, 0x08, 0x00, 0x00, 0x00,
  0xb2, 0xfd, 0xff, 0xff, 0x00, 0x00, 0x00, 0x01, 0x14, 0x00, 0x00, 0x00,
  0x1c, 0x00, 0x00, 0x00, 0x1c, 0x00, 0x00, 0x00, 0x08, 0x00, 0x00, 0x00,
  0x6c, 0x00, 0x00, 0x00, 0x02, 0x00, 0x00, 0x00, 0xff, 0xff, 0xff, 0xff,
  0x10, 0x00, 0x00, 0x00, 0x9c, 0xfd, 0xff, 0xff, 0x52, 0x00, 0x00, 0x00,
  0x73, 0x65, 0x71, 0x75, 0x65, 0x6e, 0x74, 0x69, 0x61, 0x6c, 0x5f, 0x31,
  0x2f, 0x64, 0x65, 0x6e, 0x73, 0x65, 0x5f, 0x31, 0x2f, 0x4d, 0x61, 0x74,
  0x4d, 0x75, 0x6c, 0x3b, 0x73, 0x65, 0x71, 0x75, 0x65, 0x6e, 0x74, 0x69,
  0x61, 0x6c, 0x5f, 0x31, 0x2f, 0x64, 0x65, 0x6e, 0x73, 0x65, 0x5f, 0x31,
  0x2f, 0x52, 0x65, 0x6c, 0x75, 0x3b, 0x73, 0x65, 0x71, 0x75, 0x65, 0x6e,
  0x74, 0x69, 0x61, 0x6c, 0x5f, 0x31, 0x2f, 0x64, 0x65, 0x6e, 0x73, 0x65,
  0x5f, 0x31, 0x2f, 0x42, 0x69, 0x61, 0x73, 0x41, 0x64, 0x64, 0x00, 0x00,
  0x02, 0x00, 0x00, 0x00, 0x01, 0x00, 0x00, 0x00, 0x10, 0x00, 0x00, 0x00,
  0x96, 0xfe, 0xff, 0xff, 0x00, 0x00, 0x00, 0x01, 0x10, 0x00, 0x00, 0x00,
  0x10, 0x00, 0x00, 0x00, 0x07, 0x00, 0x00, 0x00, 0x28, 0x00, 0x00, 0x00,
  0x1c, 0xfe, 0xff, 0xff, 0x1b, 0x00, 0x00, 0x00, 0x73, 0x65, 0x71, 0x75,
  0x65, 0x6e, 0x74, 0x69, 0x61, 0x6c, 0x5f, 0x31, 0x2f, 0x64, 0x65, 0x6e,
  0x73, 0x65, 0x5f, 0x31, 0x2f, 0x4d, 0x61, 0x74, 0x4d, 0x75, 0x6c, 0x00,
  0x02, 0x00, 0x00, 0x00, 0x10, 0x00, 0x00, 0x00, 0x03, 0x00, 0x00, 0x00,
  0xde, 0xfe, 0xff, 0xff, 0x00, 0x00, 0x00, 0x01, 0x10, 0x00, 0x00, 0x00,
  0x10, 0x00, 0x00, 0x00, 0x06, 0x00, 0x00, 0x00, 0x38, 0x00, 0x00, 0x00,
  0x64, 0xfe, 0xff, 0xff, 0x2b, 0x00, 0x00, 0x00, 0x73, 0x65, 0x71, 0x75,
  0x65, 0x6e, 0x74, 0x69, 0x61, 0x6c, 0x5f, 0x31, 0x2f, 0x64, 0x65, 0x6e,
  0x73, 0x65, 0x5f, 0x31, 0x2f, 0x42, 0x69, 0x61, 0x73, 0x41, 0x64, 0x64,
  0x2f, 0x52, 0x65, 0x61, 0x64, 0x56, 0x61, 0x72, 0x69, 0x61, 0x62, 0x6c,
  0x65, 0x4f, 0x70, 0x00, 0x01, 0x00, 0x00, 0x00, 0x10, 0x00, 0x00, 0x00,
  0x32, 0xff, 0xff, 0xff, 0x00, 0x00, 0x00, 0x01, 0x10, 0x00, 0x00, 0x00,
  0x10, 0x00, 0x00, 0x00, 0x05, 0x00, 0x00, 0x00, 0x3c, 0x00, 0x00, 0x00,
  0xb8, 0xfe, 0xff, 0xff, 0x2d, 0x00, 0x00, 0x00, 0x73, 0x65, 0x71, 0x75,
  0x65, 0x6e, 0x74, 0x69, 0x61, 0x6c, 0x5f, 0x31, 0x2f, 0x64, 0x65, 0x6e,
  0x73, 0x65, 0x5f, 0x31, 0x5f, 0x32, 0x2f, 0x42, 0x69, 0x61, 0x73, 0x41,
  0x64, 0x64, 0x2f, 0x52, 0x65, 0x61, 0x64, 0x56, 0x61, 0x72, 0x69, 0x61,
  0x62, 0x6c, 0x65, 0x4f, 0x70, 0x00, 0x00, 0x00, 0x01, 0x00, 0x00, 0x00,
  0x08, 0x00, 0x00, 0x00, 0x8a, 0xff, 0xff, 0xff, 0x00, 0x00, 0x00, 0x01,
  0x10, 0x00, 0x00, 0x00, 0x10, 0x00, 0x00, 0x00, 0x04, 0x00, 0x00, 0x00,
  0x1c, 0x00, 0x00, 0x00, 0x10, 0xff, 0xff, 0xff, 0x0f, 0x00, 0x00, 0x00,
  0x61, 0x72, 0x69, 0x74, 0x68, 0x2e, 0x63, 0x6f, 0x6e, 0x73, 0x74, 0x61,
  0x6e, 0x74, 0x32, 0x00, 0x01, 0x00, 0x00, 0x00, 0x01, 0x00, 0x00, 0x00,
  0xc2, 0xff, 0xff, 0xff, 0x00, 0x00, 0x00, 0x01, 0x10, 0x00, 0x00, 0x00,
  0x10, 0x00, 0x00, 0x00, 0x03, 0x00, 0x00, 0x00, 0x1c, 0x00, 0x00, 0x00,
  0x48, 0xff, 0xff, 0xff, 0x0f, 0x00, 0x00, 0x00, 0x61, 0x72, 0x69, 0x74,
  0x68, 0x2e, 0x63, 0x6f, 0x6e, 0x73, 0x74, 0x61, 0x6e, 0x74, 0x31, 0x00,
  0x02, 0x00, 0x00, 0x00, 0x08, 0x00, 0x00, 0x00, 0x10, 0x00, 0x00, 0x00,
  0x00, 0x00, 0x16, 0x00, 0x18, 0x00, 0x14, 0x00, 0x00, 0x00, 0x10, 0x00,
  0x0c, 0x00, 0x08, 0x00, 0x00, 0x00, 0x00, 0x00, 0x00, 0x00, 0x07, 0x00,
  0x16, 0x00, 0x00, 0x00, 0x00, 0x00, 0x00, 0x01, 0x10, 0x00, 0x00, 0x00,
  0x10, 0x00, 0x00, 0x00, 0x02, 0x00, 0x00, 0x00, 0x1c, 0x00, 0x00, 0x00,
  0x9c, 0xff, 0xff, 0xff, 0x0e, 0x00, 0x00, 0x00, 0x61, 0x72, 0x69, 0x74,
  0x68, 0x2e, 0x63, 0x6f, 0x6e, 0x73, 0x74, 0x61, 0x6e, 0x74, 0x00, 0x00,
  0x02, 0x00, 0x00, 0x00, 0x01, 0x00, 0x00, 0x00, 0x08, 0x00, 0x00, 0x00,
  0x00, 0x00, 0x16, 0x00, 0x1c, 0x00, 0x18, 0x00, 0x00, 0x00, 0x14, 0x00,
  0x10, 0x00, 0x0c, 0x00, 0x00, 0x00, 0x00, 0x00, 0x08, 0x00, 0x07, 0x00,
  0x16, 0x00, 0x00, 0x00, 0x00, 0x00, 0x00, 0x01, 0x14, 0x00, 0x00, 0x00,
  0x20, 0x00, 0x00, 0x00, 0x20, 0x00, 0x00, 0x00, 0x01, 0x00, 0x00, 0x00,
  0x3c, 0x00, 0x00, 0x00, 0x02, 0x00, 0x00, 0x00, 0xff, 0xff, 0xff, 0xff,
  0x03, 0x00, 0x00, 0x00, 0x04, 0x00, 0x04, 0x00, 0x04, 0x00, 0x00, 0x00,
  0x1e, 0x00, 0x00, 0x00, 0x73, 0x65, 0x72, 0x76, 0x69, 0x6e, 0x67, 0x5f,
  0x64, 0x65, 0x66, 0x61, 0x75, 0x6c, 0x74, 0x5f, 0x6b, 0x65, 0x72, 0x61,
  0x73, 0x5f, 0x74, 0x65, 0x6e, 0x73, 0x6f, 0x72, 0x3a, 0x30, 0x00, 0x00,
  0x02, 0x00, 0x00, 0x00, 0x01, 0x00, 0x00, 0x00, 0x03, 0x00, 0x00, 0x00,
  0x02, 0x00, 0x00, 0x00, 0x20, 0x00, 0x00, 0x00, 0x04, 0x00, 0x00, 0x00,
  0xf4, 0xff, 0xff, 0xff, 0x0e, 0x00, 0x00, 0x00, 0x00, 0x00, 0x00, 0x0e,
  0x0c, 0x00, 0x0c, 0x00, 0x0b, 0x00, 0x00, 0x00, 0x00, 0x00, 0x04, 0x00,
  0x0c, 0x00, 0x00, 0x00, 0x09, 0x00, 0x00, 0x00, 0x00, 0x00, 0x00, 0x09
};
unsigned int _content_vital_signs_model_quantized_tflite_len = 2904;
